unsigned char converted_model_tflite[] = {
  0x1c, 0x00, 0x00, 0x00, 0x54, 0x46, 0x4c, 0x33, 0x14, 0x00, 0x20, 0x00,
  0x1c, 0x00, 0x18, 0x00, 0x14, 0x00, 0x10, 0x00, 0x0c, 0x00, 0x00, 0x00,
  0x08, 0x00, 0x04, 0x00, 0x14, 0x00, 0x00, 0x00, 0x1c, 0x00, 0x00, 0x00,
  0x8c, 0x00, 0x00, 0x00, 0xe4, 0x00, 0x00, 0x00, 0x60, 0x05, 0x00, 0x00,
  0x70, 0x05, 0x00, 0x00, 0xb4, 0x09, 0x00, 0x00, 0x03, 0x00, 0x00, 0x00,
  0x01, 0x00, 0x00, 0x00, 0x04, 0x00, 0x00, 0x00, 0x56, 0xfa, 0xff, 0xff,
  0x0c, 0x00, 0x00, 0x00, 0x1c, 0x00, 0x00, 0x00, 0x3c, 0x00, 0x00, 0x00,
  0x0f, 0x00, 0x00, 0x00, 0x73, 0x65, 0x72, 0x76, 0x69, 0x6e, 0x67, 0x5f,
  0x64, 0x65, 0x66, 0x61, 0x75, 0x6c, 0x74, 0x00, 0x01, 0x00, 0x00, 0x00,
  0x04, 0x00, 0x00, 0x00, 0x90, 0xff, 0xff, 0xff, 0x07, 0x00, 0x00, 0x00,
  0x04, 0x00, 0x00, 0x00, 0x08, 0x00, 0x00, 0x00, 0x6f, 0x75, 0x74, 0x70,
  0x75, 0x74, 0x5f, 0x30, 0x00, 0x00, 0x00, 0x00, 0x01, 0x00, 0x00, 0x00,
  0x04, 0x00, 0x00, 0x00, 0x1a, 0xfd, 0xff, 0xff, 0x04, 0x00, 0x00, 0x00,
  0x0e, 0x00, 0x00, 0x00, 0x6b, 0x65, 0x72, 0x61, 0x73, 0x5f, 0x74, 0x65,
  0x6e, 0x73, 0x6f, 0x72, 0x5f, 0x33, 0x00, 0x00, 0x02, 0x00, 0x00, 0x00,
  0x34, 0x00, 0x00, 0x00, 0x04, 0x00, 0x00, 0x00, 0xdc, 0xff, 0xff, 0xff,
  0x0a, 0x00, 0x00, 0x00, 0x04, 0x00, 0x00, 0x00, 0x13, 0x00, 0x00, 0x00,
  0x43, 0x4f, 0x4e, 0x56, 0x45, 0x52, 0x53, 0x49, 0x4f, 0x4e, 0x5f, 0x4d,
  0x45, 0x54, 0x41, 0x44, 0x41, 0x54, 0x41, 0x00, 0x08, 0x00, 0x0c, 0x00,
  0x08, 0x00, 0x04, 0x00, 0x08, 0x00, 0x00, 0x00, 0x09, 0x00, 0x00, 0x00,
  0x04, 0x00, 0x00, 0x00, 0x13, 0x00, 0x00, 0x00, 0x6d, 0x69, 0x6e, 0x5f,
  0x72, 0x75, 0x6e, 0x74, 0x69, 0x6d, 0x65, 0x5f, 0x76, 0x65, 0x72, 0x73,
  0x69, 0x6f, 0x6e, 0x00, 0x0b, 0x00, 0x00, 0x00, 0x78, 0x04, 0x00, 0x00,
  0x70, 0x04, 0x00, 0x00, 0x68, 0x02, 0x00, 0x00, 0x34, 0x02, 0x00, 0x00,
  0xdc, 0x01, 0x00, 0x00, 0xac, 0x00, 0x00, 0x00, 0xa4, 0x00, 0x00, 0x00,
  0x9c, 0x00, 0x00, 0x00, 0x94, 0x00, 0x00, 0x00, 0x74, 0x00, 0x00, 0x00,
  0x04, 0x00, 0x00, 0x00, 0xc2, 0xfd, 0xff, 0xff, 0x04, 0x00, 0x00, 0x00,
  0x60, 0x00, 0x00, 0x00, 0x10, 0x00, 0x00, 0x00, 0x00, 0x00, 0x00, 0x00,
  0x08, 0x00, 0x0e, 0x00, 0x08, 0x00, 0x04, 0x00, 0x08, 0x00, 0x00, 0x00,
  0x10, 0x00, 0x00, 0x00, 0x24, 0x00, 0x00, 0x00, 0x00, 0x00, 0x06, 0x00,
  0x08, 0x00, 0x04, 0x00, 0x06, 0x00, 0x00, 0x00, 0x04, 0x00, 0x00, 0x00,
  0x00, 0x00, 0x00, 0x00, 0x0c, 0x00, 0x18, 0x00, 0x14, 0x00, 0x10, 0x00,
  0x0c, 0x00, 0x04, 0x00, 0x0c, 0x00, 0x00, 0x00, 0x01, 0x11, 0xd9, 0xe9,
  0x8c, 0xcd, 0x6b, 0xb3, 0x02, 0x00, 0x00, 0x00, 0x02, 0x00, 0x00, 0x00,
  0x04, 0x00, 0x00, 0x00, 0x06, 0x00, 0x00, 0x00, 0x32, 0x2e, 0x31, 0x38,
  0x2e, 0x30, 0x00, 0x00, 0x2e, 0xfe, 0xff, 0xff, 0x04, 0x00, 0x00, 0x00,
  0x10, 0x00, 0x00, 0x00, 0x31, 0x2e, 0x31, 0x34, 0x2e, 0x30, 0x00, 0x00,
  0x00, 0x00, 0x00, 0x00, 0x00, 0x00, 0x00, 0x00, 0x18, 0xf8, 0xff, 0xff,
  0x1c, 0xf8, 0xff, 0xff, 0x20, 0xf8, 0xff, 0xff, 0x56, 0xfe, 0xff, 0xff,
  0x04, 0x00, 0x00, 0x00, 0x20, 0x01, 0x00, 0x00, 0x46, 0xa2, 0xd7, 0x3f,
  0x42, 0x29, 0x01, 0xc0, 0x9e, 0x4a, 0x29, 0x3f, 0xd7, 0x23, 0xb5, 0x3e,
  0x02, 0x3d, 0x8e, 0xbf, 0x79, 0xbd, 0x79, 0x3e, 0x52, 0x54, 0xad, 0x3f,
  0x51, 0x3c, 0x8e, 0xbf, 0x91, 0x27, 0x88, 0x3f, 0x9c, 0xdf, 0x1b, 0x3f,
  0xb4, 0x46, 0xd6, 0x3f, 0x57, 0x02, 0x88, 0xbf, 0x6c, 0xa1, 0xb7, 0xbe,
  0x7c, 0xc7, 0x7c, 0xbe, 0x48, 0x55, 0x3a, 0xbd, 0x3a, 0xe7, 0xdf, 0xbe,
  0xae, 0xde, 0xfb, 0xbf, 0xb0, 0x9b, 0xf6, 0xbf, 0x47, 0xde, 0xfb, 0x3f,
  0xc9, 0x17, 0x27, 0xbd, 0x25, 0xd3, 0x6d, 0x39, 0xbf, 0x9b, 0x87, 0xbf,
  0xd5, 0x3c, 0xc9, 0x3f, 0xf1, 0x17, 0xc9, 0xbf, 0xa0, 0x73, 0x39, 0x3f,
  0xed, 0x81, 0xe6, 0xbf, 0x5a, 0xe2, 0x89, 0x3f, 0xd6, 0x96, 0xe6, 0xbf,
  0xe5, 0x82, 0xe6, 0xbf, 0x87, 0xd6, 0x60, 0xbf, 0x49, 0x0a, 0x6c, 0x3f,
  0xb4, 0x29, 0x5b, 0x3e, 0x38, 0x88, 0x7f, 0x3f, 0x5b, 0x63, 0x94, 0xbe,
  0x76, 0xc3, 0x35, 0xbf, 0xb5, 0x48, 0x0f, 0xbf, 0x9e, 0xcf, 0xdb, 0xbf,
  0xb2, 0x98, 0x31, 0xbf, 0xd6, 0x50, 0x31, 0xbf, 0x25, 0x19, 0xef, 0x3f,
  0x68, 0x36, 0x7c, 0xbd, 0x80, 0x92, 0x69, 0xbd, 0xb0, 0x5d, 0xe7, 0xbe,
  0xd6, 0x40, 0x37, 0xbe, 0x15, 0xa0, 0x0d, 0x3f, 0x1c, 0x16, 0x69, 0x3f,
  0xc6, 0x00, 0x75, 0x3f, 0x5a, 0x31, 0x3a, 0x3f, 0x92, 0x92, 0xa8, 0xbf,
  0x23, 0xc0, 0xd6, 0xbf, 0xcb, 0xed, 0xb5, 0x3f, 0xc3, 0x56, 0xb3, 0x3f,
  0x59, 0x6f, 0x5e, 0xbf, 0xf9, 0x37, 0x80, 0x3f, 0x6a, 0x36, 0x3b, 0x3d,
  0x3a, 0xf2, 0x2b, 0xbf, 0x5a, 0xef, 0xf0, 0xbf, 0x61, 0x7e, 0x21, 0x3f,
  0xf9, 0x56, 0xe8, 0x3f, 0x40, 0x68, 0x21, 0x3f, 0x02, 0x16, 0xbd, 0xbf,
  0x49, 0xd5, 0xaf, 0x3f, 0xb2, 0xe2, 0x40, 0xbe, 0x32, 0x4b, 0xd8, 0x3f,
  0xbd, 0xe1, 0x38, 0x3f, 0xda, 0xc4, 0x2b, 0x3e, 0x32, 0x5f, 0x85, 0xbf,
  0x89, 0x6b, 0x38, 0xbf, 0x71, 0xb5, 0xa9, 0x3f, 0xe8, 0xa4, 0xae, 0x3e,
  0xd3, 0x60, 0xd9, 0x3f, 0x0e, 0xac, 0xa9, 0xbf, 0x82, 0xff, 0xff, 0xff,
  0x04, 0x00, 0x00, 0x00, 0x48, 0x00, 0x00, 0x00, 0x16, 0xa6, 0x3d, 0xb8,
  0xc0, 0x33, 0x5e, 0x3f, 0x72, 0xd8, 0x1b, 0xbf, 0x00, 0x00, 0x00, 0x00,
  0xac, 0x34, 0xc3, 0x39, 0x4c, 0x9b, 0x87, 0x3f, 0x18, 0x03, 0xa7, 0x39,
  0xb3, 0x0a, 0x2a, 0x3f, 0xf4, 0x57, 0x0f, 0x3f, 0x39, 0x90, 0x31, 0x3f,
  0x00, 0x00, 0x00, 0x00, 0xf6, 0xd9, 0x20, 0xb7, 0x40, 0xa7, 0x8d, 0x3e,
  0xb2, 0x0b, 0x0a, 0x3f, 0x78, 0x4b, 0x21, 0xbf, 0x6b, 0xab, 0xde, 0x3d,
  0xb6, 0xec, 0x5f, 0x3f, 0xe3, 0xb9, 0xae, 0xbe, 0xd6, 0xff, 0xff, 0xff,
  0x04, 0x00, 0x00, 0x00, 0x1c, 0x00, 0x00, 0x00, 0x54, 0x45, 0x28, 0xbe,
  0x2b, 0x1f, 0x05, 0x3f, 0xa7, 0x59, 0xed, 0x3e, 0x96, 0xe3, 0xba, 0x3e,
  0xba, 0x54, 0x34, 0xbd, 0x42, 0x8d, 0x1e, 0x3f, 0x57, 0xb5, 0x4c, 0xbe,
  0x00, 0x00, 0x06, 0x00, 0x08, 0x00, 0x04, 0x00, 0x06, 0x00, 0x00, 0x00,
  0x04, 0x00, 0x00, 0x00, 0xf8, 0x01, 0x00, 0x00, 0xb0, 0xd9, 0x9f, 0x3e,
  0xc3, 0x0b, 0x14, 0x3f, 0xad, 0x05, 0xa0, 0x3f, 0x58, 0xe0, 0x9a, 0xbe,
  0x31, 0xb1, 0xdb, 0x3f, 0x53, 0x04, 0xf1, 0x3e, 0xde, 0xc3, 0x38, 0x3f,
  0x68, 0x78, 0x3c, 0x3f, 0x87, 0x5c, 0x6d, 0x3f, 0xe5, 0x9e, 0x00, 0x40,
  0x17, 0xc3, 0xd9, 0x3e, 0x90, 0x71, 0x73, 0xbe, 0x83, 0x4f, 0x39, 0xc0,
  0xd2, 0xcd, 0x9b, 0xbe, 0x7b, 0x0e, 0x1f, 0x40, 0xc5, 0x03, 0x80, 0xbf,
  0x28, 0xe7, 0x4c, 0x3d, 0xd9, 0x7d, 0x4b, 0x3f, 0x90, 0x04, 0x60, 0x3f,
  0x8a, 0x3e, 0xf6, 0x3f, 0x40, 0x1a, 0x02, 0xc0, 0xac, 0x6c, 0x17, 0xbe,
  0xa9, 0x26, 0x34, 0x3f, 0x0c, 0x16, 0x4c, 0x3e, 0x66, 0x0a, 0x27, 0x40,
  0x89, 0xd9, 0xde, 0x3f, 0x9f, 0xfc, 0xb1, 0x3f, 0xc0, 0x05, 0x00, 0xbf,
  0x86, 0x09, 0x21, 0x3e, 0x62, 0x32, 0x76, 0xbf, 0x28, 0x10, 0x42, 0x3f,
  0xd8, 0x65, 0xdf, 0xbf, 0xbf, 0x78, 0xfc, 0x3e, 0x90, 0xfc, 0xff, 0x3e,
  0x8d, 0x87, 0xac, 0x3f, 0x9c, 0x5b, 0xcc, 0xbf, 0xfa, 0x1f, 0x00, 0x40,
  0x8f, 0xa6, 0xdb, 0x3f, 0xf8, 0xb8, 0xc3, 0xbf, 0x67, 0xcc, 0x9d, 0xbe,
  0x6b, 0xa2, 0x1b, 0xc0, 0x94, 0xed, 0xbd, 0x3f, 0xf0, 0xc8, 0x33, 0xbf,
  0xa7, 0x0e, 0xa7, 0xbf, 0xa3, 0xe6, 0x18, 0x3f, 0xeb, 0xd7, 0xba, 0x3f,
  0x52, 0x76, 0x08, 0x3e, 0x82, 0xbf, 0x5b, 0xbf, 0x18, 0xe7, 0x63, 0x3d,
  0xdf, 0xab, 0x85, 0xbe, 0xbc, 0x5b, 0xa2, 0x3e, 0x71, 0x4e, 0xe3, 0x3f,
  0xf0, 0xd1, 0xef, 0x3e, 0x76, 0x18, 0x9b, 0xbf, 0x07, 0x21, 0x25, 0x3d,
  0x28, 0x02, 0x4c, 0xbf, 0x7a, 0x4b, 0x9c, 0xbf, 0x0d, 0x3f, 0xee, 0x3e,
  0x9f, 0x7a, 0xec, 0x3f, 0x13, 0x8b, 0x11, 0x40, 0x54, 0xa1, 0x33, 0xc0,
  0xd0, 0xb2, 0xd4, 0xbe, 0x00, 0x63, 0x79, 0x3f, 0x05, 0x68, 0x74, 0x3f,
  0x0f, 0xf4, 0xdc, 0x3e, 0xbf, 0x66, 0x86, 0x3f, 0xf5, 0xfa, 0xb0, 0xbf,
  0xb7, 0x57, 0x8e, 0xbd, 0x2a, 0x3d, 0x9e, 0x3f, 0x77, 0x39, 0xb2, 0xbf,
  0x99, 0x21, 0x6e, 0x3f, 0x2e, 0xff, 0xec, 0xbe, 0x71, 0x28, 0x8c, 0xbf,
  0x4f, 0x6c, 0x65, 0xbe, 0xac, 0xb3, 0xc0, 0x3f, 0xd5, 0x26, 0xcc, 0xbe,
  0x4e, 0x93, 0x0d, 0xbe, 0x43, 0x65, 0x09, 0x40, 0x0b, 0xc0, 0xbf, 0x3e,
  0xd3, 0xc9, 0x3b, 0x3f, 0xc8, 0x01, 0x71, 0x3f, 0x9b, 0x39, 0xaa, 0xbf,
  0x88, 0xf3, 0x40, 0x3d, 0xa6, 0x5c, 0x88, 0x3f, 0x38, 0xb2, 0x7c, 0xbf,
  0xda, 0xf6, 0xa3, 0xbf, 0xd2, 0x74, 0x1d, 0xbf, 0x45, 0x67, 0x91, 0xbf,
  0xdc, 0x48, 0x32, 0x3f, 0x94, 0x85, 0x95, 0x3f, 0x0f, 0x11, 0xd0, 0x3f,
  0x14, 0xb6, 0xba, 0x3e, 0xa9, 0x8c, 0x6e, 0x3f, 0x1c, 0x58, 0x44, 0xbe,
  0x85, 0xe0, 0xcc, 0xbf, 0x68, 0x8a, 0x61, 0x3f, 0x62, 0xce, 0xbe, 0xbf,
  0x9d, 0x36, 0xb2, 0xbf, 0x43, 0xdf, 0xa5, 0x3c, 0xc1, 0x88, 0x4c, 0x3f,
  0x44, 0x7b, 0xcd, 0xbe, 0xd4, 0xf1, 0xfe, 0xbe, 0x23, 0x64, 0x01, 0xc0,
  0x43, 0x94, 0xf4, 0x3f, 0xef, 0x63, 0x00, 0xbf, 0xea, 0xc4, 0xd2, 0xbe,
  0x1f, 0xf5, 0x56, 0x3e, 0x8d, 0xba, 0x88, 0x3f, 0x5e, 0x7e, 0x09, 0x40,
  0x37, 0x8b, 0x35, 0x3d, 0xa3, 0x9e, 0x1e, 0xbf, 0x80, 0x8f, 0xef, 0xbb,
  0xd4, 0x79, 0x1f, 0x40, 0xd1, 0x30, 0x03, 0x40, 0x03, 0xd0, 0x56, 0x3f,
  0xeb, 0xca, 0xe9, 0xbf, 0xac, 0x06, 0x47, 0xbf, 0x05, 0x56, 0x8f, 0xbf,
  0x80, 0x20, 0xe4, 0xbc, 0x36, 0x71, 0x91, 0x3f, 0x53, 0x1f, 0xa2, 0xbf,
  0x38, 0x2e, 0x1d, 0x3c, 0x08, 0x4f, 0x5e, 0xbf, 0xe9, 0x4b, 0x91, 0x3f,
  0xb1, 0x95, 0x1c, 0xbf, 0x66, 0x35, 0x7e, 0xbe, 0xd8, 0xfb, 0xff, 0xff,
  0xdc, 0xfb, 0xff, 0xff, 0x0f, 0x00, 0x00, 0x00, 0x4d, 0x4c, 0x49, 0x52,
  0x20, 0x43, 0x6f, 0x6e, 0x76, 0x65, 0x72, 0x74, 0x65, 0x64, 0x2e, 0x00,
  0x01, 0x00, 0x00, 0x00, 0x14, 0x00, 0x00, 0x00, 0x00, 0x00, 0x0e, 0x00,
  0x18, 0x00, 0x14, 0x00, 0x10, 0x00, 0x0c, 0x00, 0x08, 0x00, 0x04, 0x00,
  0x0e, 0x00, 0x00, 0x00, 0x14, 0x00, 0x00, 0x00, 0x1c, 0x00, 0x00, 0x00,
  0xd0, 0x00, 0x00, 0x00, 0xd4, 0x00, 0x00, 0x00, 0xd8, 0x00, 0x00, 0x00,
  0x04, 0x00, 0x00, 0x00, 0x6d, 0x61, 0x69, 0x6e, 0x00, 0x00, 0x00, 0x00,
  0x03, 0x00, 0x00, 0x00, 0x78, 0x00, 0x00, 0x00, 0x34, 0x00, 0x00, 0x00,
  0x10, 0x00, 0x00, 0x00, 0x00, 0x00, 0x0a, 0x00, 0x10, 0x00, 0x0c, 0x00,
  0x08, 0x00, 0x04, 0x00, 0x0a, 0x00, 0x00, 0x00, 0x0c, 0x00, 0x00, 0x00,
  0x10, 0x00, 0x00, 0x00, 0x01, 0x00, 0x00, 0x00, 0x01, 0x00, 0x00, 0x00,
  0x07, 0x00, 0x00, 0x00, 0x01, 0x00, 0x00, 0x00, 0x06, 0x00, 0x00, 0x00,
  0xce, 0xff, 0xff, 0xff, 0x10, 0x00, 0x00, 0x00, 0x00, 0x00, 0x00, 0x08,
  0x0c, 0x00, 0x00, 0x00, 0x10, 0x00, 0x00, 0x00, 0x80, 0xfc, 0xff, 0xff,
  0x01, 0x00, 0x00, 0x00, 0x06, 0x00, 0x00, 0x00, 0x03, 0x00, 0x00, 0x00,
  0x05, 0x00, 0x00, 0x00, 0x01, 0x00, 0x00, 0x00, 0x02, 0x00, 0x00, 0x00,
  0x00, 0x00, 0x0e, 0x00, 0x16, 0x00, 0x00, 0x00, 0x10, 0x00, 0x0c, 0x00,
  0x0b, 0x00, 0x04, 0x00, 0x0e, 0x00, 0x00, 0x00, 0x18, 0x00, 0x00, 0x00,
  0x00, 0x00, 0x00, 0x08, 0x18, 0x00, 0x00, 0x00, 0x1c, 0x00, 0x00, 0x00,
  0x00, 0x00, 0x06, 0x00, 0x08, 0x00, 0x07, 0x00, 0x06, 0x00, 0x00, 0x00,
  0x00, 0x00, 0x00, 0x01, 0x01, 0x00, 0x00, 0x00, 0x05, 0x00, 0x00, 0x00,
  0x03, 0x00, 0x00, 0x00, 0x00, 0x00, 0x00, 0x00, 0x04, 0x00, 0x00, 0x00,
  0x03, 0x00, 0x00, 0x00, 0x01, 0x00, 0x00, 0x00, 0x07, 0x00, 0x00, 0x00,
  0x01, 0x00, 0x00, 0x00, 0x00, 0x00, 0x00, 0x00, 0x08, 0x00, 0x00, 0x00,
  0xdc, 0x02, 0x00, 0x00, 0x84, 0x02, 0x00, 0x00, 0x30, 0x02, 0x00, 0x00,
  0xd4, 0x01, 0x00, 0x00, 0x84, 0x01, 0x00, 0x00, 0xe4, 0x00, 0x00, 0x00,
  0x60, 0x00, 0x00, 0x00, 0x04, 0x00, 0x00, 0x00, 0x5a, 0xfd, 0xff, 0xff,
  0x00, 0x00, 0x00, 0x01, 0x14, 0x00, 0x00, 0x00, 0x1c, 0x00, 0x00, 0x00,
  0x1c, 0x00, 0x00, 0x00, 0x08, 0x00, 0x00, 0x00, 0x34, 0x00, 0x00, 0x00,
  0x02, 0x00, 0x00, 0x00, 0xff, 0xff, 0xff, 0xff, 0x07, 0x00, 0x00, 0x00,
  0x44, 0xfd, 0xff, 0xff, 0x1b, 0x00, 0x00, 0x00, 0x53, 0x74, 0x61, 0x74,
  0x65, 0x66, 0x75, 0x6c, 0x50, 0x61, 0x72, 0x74, 0x69, 0x74, 0x69, 0x6f,
  0x6e, 0x65, 0x64, 0x43, 0x61, 0x6c, 0x6c, 0x5f, 0x31, 0x3a, 0x30, 0x00,
  0x02, 0x00, 0x00, 0x00, 0x01, 0x00, 0x00, 0x00, 0x07, 0x00, 0x00, 0x00,
  0xb2, 0xfd, 0xff, 0xff, 0x00, 0x00, 0x00, 0x01, 0x14, 0x00, 0x00, 0x00,
  0x1c, 0x00, 0x00, 0x00, 0x1c, 0x00, 0x00, 0x00, 0x07, 0x00, 0x00, 0x00,
  0x5c, 0x00, 0x00, 0x00, 0x02, 0x00, 0x00, 0x00, 0xff, 0xff, 0xff, 0xff,
  0x07, 0x00, 0x00, 0x00, 0x9c, 0xfd, 0xff, 0xff, 0x40, 0x00, 0x00, 0x00,
  0x73, 0x65, 0x71, 0x75, 0x65, 0x6e, 0x74, 0x69, 0x61, 0x6c, 0x5f, 0x31,
  0x5f, 0x31, 0x2f, 0x64, 0x65, 0x6e, 0x73, 0x65, 0x5f, 0x33, 0x5f, 0x31,
  0x2f, 0x4d, 0x61, 0x74, 0x4d, 0x75, 0x6c, 0x3b, 0x73, 0x65, 0x71, 0x75,
  0x65, 0x6e, 0x74, 0x69, 0x61, 0x6c, 0x5f, 0x31, 0x5f, 0x31, 0x2f, 0x64,
  0x65, 0x6e, 0x73, 0x65, 0x5f, 0x33, 0x5f, 0x31, 0x2f, 0x42, 0x69, 0x61,
  0x73, 0x41, 0x64, 0x64, 0x00, 0x00, 0x00, 0x00, 0x02, 0x00, 0x00, 0x00,
  0x01, 0x00, 0x00, 0x00, 0x07, 0x00, 0x00, 0x00, 0x32, 0xfe, 0xff, 0xff,
  0x00, 0x00, 0x00, 0x01, 0x14, 0x00, 0x00, 0x00, 0x1c, 0x00, 0x00, 0x00,
  0x1c, 0x00, 0x00, 0x00, 0x06, 0x00, 0x00, 0x00, 0x78, 0x00, 0x00, 0x00,
  0x02, 0x00, 0x00, 0x00, 0xff, 0xff, 0xff, 0xff, 0x12, 0x00, 0x00, 0x00,
  0x1c, 0xfe, 0xff, 0xff, 0x5e, 0x00, 0x00, 0x00, 0x73, 0x65, 0x71, 0x75,
  0x65, 0x6e, 0x74, 0x69, 0x61, 0x6c, 0x5f, 0x31, 0x5f, 0x31, 0x2f, 0x64,
  0x65, 0x6e, 0x73, 0x65, 0x5f, 0x32, 0x5f, 0x31, 0x2f, 0x4d, 0x61, 0x74,
  0x4d, 0x75, 0x6c, 0x3b, 0x73, 0x65, 0x71, 0x75, 0x65, 0x6e, 0x74, 0x69,
  0x61, 0x6c, 0x5f, 0x31, 0x5f, 0x31, 0x2f, 0x64, 0x65, 0x6e, 0x73, 0x65,
  0x5f, 0x32, 0x5f, 0x31, 0x2f, 0x52, 0x65, 0x6c, 0x75, 0x3b, 0x73, 0x65,
  0x71, 0x75, 0x65, 0x6e, 0x74, 0x69, 0x61, 0x6c, 0x5f, 0x31, 0x5f, 0x31,
  0x2f, 0x64, 0x65, 0x6e, 0x73, 0x65, 0x5f, 0x32, 0x5f, 0x31, 0x2f, 0x42,
  0x69, 0x61, 0x73, 0x41, 0x64, 0x64, 0x00, 0x00, 0x02, 0x00, 0x00, 0x00,
  0x01, 0x00, 0x00, 0x00, 0x12, 0x00, 0x00, 0x00, 0x22, 0xff, 0xff, 0xff,
  0x00, 0x00, 0x00, 0x01, 0x10, 0x00, 0x00, 0x00, 0x10, 0x00, 0x00, 0x00,
  0x05, 0x00, 0x00, 0x00, 0x2c, 0x00, 0x00, 0x00, 0xa8, 0xfe, 0xff, 0xff,
  0x1f, 0x00, 0x00, 0x00, 0x73, 0x65, 0x71, 0x75, 0x65, 0x6e, 0x74, 0x69,
  0x61, 0x6c, 0x5f, 0x31, 0x5f, 0x31, 0x2f, 0x64, 0x65, 0x6e, 0x73, 0x65,
  0x5f, 0x32, 0x5f, 0x31, 0x2f, 0x4d, 0x61, 0x74, 0x4d, 0x75, 0x6c, 0x00,
  0x02, 0x00, 0x00, 0x00, 0x12, 0x00, 0x00, 0x00, 0x04, 0x00, 0x00, 0x00,
  0x6e, 0xff, 0xff, 0xff, 0x00, 0x00, 0x00, 0x01, 0x10, 0x00, 0x00, 0x00,
  0x10, 0x00, 0x00, 0x00, 0x04, 0x00, 0x00, 0x00, 0x3c, 0x00, 0x00, 0x00,
  0xf4, 0xfe, 0xff, 0xff, 0x2f, 0x00, 0x00, 0x00, 0x73, 0x65, 0x71, 0x75,
  0x65, 0x6e, 0x74, 0x69, 0x61, 0x6c, 0x5f, 0x31, 0x5f, 0x31, 0x2f, 0x64,
  0x65, 0x6e, 0x73, 0x65, 0x5f, 0x32, 0x5f, 0x31, 0x2f, 0x42, 0x69, 0x61,
  0x73, 0x41, 0x64, 0x64, 0x2f, 0x52, 0x65, 0x61, 0x64, 0x56, 0x61, 0x72,
  0x69, 0x61, 0x62, 0x6c, 0x65, 0x4f, 0x70, 0x00, 0x01, 0x00, 0x00, 0x00,
  0x12, 0x00, 0x00, 0x00, 0xc6, 0xff, 0xff, 0xff, 0x00, 0x00, 0x00, 0x01,
  0x10, 0x00, 0x00, 0x00, 0x10, 0x00, 0x00, 0x00, 0x03, 0x00, 0x00, 0x00,
  0x1c, 0x00, 0x00, 0x00, 0x4c, 0xff, 0xff, 0xff, 0x0f, 0x00, 0x00, 0x00,
  0x61, 0x72, 0x69, 0x74, 0x68, 0x2e, 0x63, 0x6f, 0x6e, 0x73, 0x74, 0x61,
  0x6e, 0x74, 0x31, 0x00, 0x01, 0x00, 0x00, 0x00, 0x07, 0x00, 0x00, 0x00,
  0x00, 0x00, 0x16, 0x00, 0x18, 0x00, 0x14, 0x00, 0x00, 0x00, 0x10, 0x00,
  0x0c, 0x00, 0x08, 0x00, 0x00, 0x00, 0x00, 0x00, 0x00, 0x00, 0x07, 0x00,
  0x16, 0x00, 0x00, 0x00, 0x00, 0x00, 0x00, 0x01, 0x10, 0x00, 0x00, 0x00,
  0x10, 0x00, 0x00, 0x00, 0x02, 0x00, 0x00, 0x00, 0x1c, 0x00, 0x00, 0x00,
  0x9c, 0xff, 0xff, 0xff, 0x0e, 0x00, 0x00, 0x00, 0x61, 0x72, 0x69, 0x74,
  0x68, 0x2e, 0x63, 0x6f, 0x6e, 0x73, 0x74, 0x61, 0x6e, 0x74, 0x00, 0x00,
  0x02, 0x00, 0x00, 0x00, 0x07, 0x00, 0x00, 0x00, 0x12, 0x00, 0x00, 0x00,
  0x00, 0x00, 0x16, 0x00, 0x1c, 0x00, 0x18, 0x00, 0x00, 0x00, 0x14, 0x00,
  0x10, 0x00, 0x0c, 0x00, 0x00, 0x00, 0x00, 0x00, 0x08, 0x00, 0x07, 0x00,
  0x16, 0x00, 0x00, 0x00, 0x00, 0x00, 0x00, 0x01, 0x14, 0x00, 0x00, 0x00,
  0x20, 0x00, 0x00, 0x00, 0x20, 0x00, 0x00, 0x00, 0x01, 0x00, 0x00, 0x00,
  0x40, 0x00, 0x00, 0x00, 0x02, 0x00, 0x00, 0x00, 0xff, 0xff, 0xff, 0xff,
  0x04, 0x00, 0x00, 0x00, 0x04, 0x00, 0x04, 0x00, 0x04, 0x00, 0x00, 0x00,
  0x20, 0x00, 0x00, 0x00, 0x73, 0x65, 0x72, 0x76, 0x69, 0x6e, 0x67, 0x5f,
  0x64, 0x65, 0x66, 0x61, 0x75, 0x6c, 0x74, 0x5f, 0x6b, 0x65, 0x72, 0x61,
  0x73, 0x5f, 0x74, 0x65, 0x6e, 0x73, 0x6f, 0x72, 0x5f, 0x33, 0x3a, 0x30,
  0x00, 0x00, 0x00, 0x00, 0x02, 0x00, 0x00, 0x00, 0x01, 0x00, 0x00, 0x00,
  0x04, 0x00, 0x00, 0x00, 0x02, 0x00, 0x00, 0x00, 0x20, 0x00, 0x00, 0x00,
  0x04, 0x00, 0x00, 0x00, 0xf4, 0xff, 0xff, 0xff, 0x0e, 0x00, 0x00, 0x00,
  0x00, 0x00, 0x00, 0x0e, 0x0c, 0x00, 0x0c, 0x00, 0x0b, 0x00, 0x00, 0x00,
  0x00, 0x00, 0x04, 0x00, 0x0c, 0x00, 0x00, 0x00, 0x09, 0x00, 0x00, 0x00,
  0x00, 0x00, 0x00, 0x09
};
unsigned int model_len = 2584;
